<?xml version="1.0"?>
<opencv_storage>
<stage11>
  <maxWeakCount>21</maxWeakCount>
  <stageThreshold>-5.0714272260665894e-001</stageThreshold>
  <weakClassifiers>
    <_>
      <internalNodes>
        0 -1 1504233 -2.5449000298976898e-002</internalNodes>
      <leafValues>
        7.5211745500564575e-001 1.3531084358692169e-001</leafValues></_>
    <_>
      <internalNodes>
        0 -1 4060831 -1.0392316617071629e-002</internalNodes>
      <leafValues>
        3.8726219534873962e-001 -1.6931045055389404e-001</leafValues></_>
    <_>
      <internalNodes>
        0 -1 103143 1.1347748339176178e-001</internalNodes>
      <leafValues>
        -1.4889152348041534e-001 4.8768341541290283e-001</leafValues></_>
    <_>
      <internalNodes>
        0 -1 1344751 -1.4856988855171949e-004</internalNodes>
      <leafValues>
        -5.4730999469757080e-001 1.2129872292280197e-001</leafValues></_>
    <_>
      <internalNodes>
        0 -1 1204589 -3.5298469356348505e-006</internalNodes>
      <leafValues>
        3.2378435134887695e-001 -2.2733734548091888e-001</leafValues></_>
    <_>
      <internalNodes>
        0 -1 1204589 3.4342720027780160e-006</internalNodes>
      <leafValues>
        -2.2249689698219299e-001 4.1397634148597717e-001</leafValues></_>
    <_>
      <internalNodes>
        0 -1 1692207 2.9782087076455355e-003</internalNodes>
      <leafValues>
        1.1224573105573654e-001 -5.7201498746871948e-001</leafValues></_>
    <_>
      <internalNodes>
        0 -1 2042411 9.6679227426648140e-003</internalNodes>
      <leafValues>
        -1.2288616597652435e-001 4.9251806735992432e-001</leafValues></_>
    <_>
      <internalNodes>
        0 -1 3751585 -1.5987496823072433e-002</internalNodes>
      <leafValues>
        3.9512509107589722e-001 -1.5800839662551880e-001</leafValues></_>
    <_>
      <internalNodes>
        0 -1 2496612 -3.2931626774370670e-003</internalNodes>
      <leafValues>
        -5.9522807598114014e-001 9.8250180482864380e-002</leafValues></_>
    <_>
      <internalNodes>
        0 -1 1327160 -6.3232838874682784e-004</internalNodes>
      <leafValues>
        -4.4485607743263245e-001 1.3597768545150757e-001</leafValues></_>
    <_>
      <internalNodes>
        0 -1 1237431 1.2003783194813877e-004</internalNodes>
      <leafValues>
        1.4479580521583557e-001 -3.8495272397994995e-001</leafValues></_>
    <_>
      <internalNodes>
        0 -1 66216 6.6831149160861969e-004</internalNodes>
      <leafValues>
        -2.0905083417892456e-001 2.7942216396331787e-001</leafValues></_>
    <_>
      <internalNodes>
        0 -1 953284 -1.1107375845313072e-002</internalNodes>
      <leafValues>
        4.1214352846145630e-001 -1.3769802451133728e-001</leafValues></_>
    <_>
      <internalNodes>
        0 -1 392106 1.7717048525810242e-002</internalNodes>
      <leafValues>
        9.6704185009002686e-002 -6.5313756465911865e-001</leafValues></_>
    <_>
      <internalNodes>
        0 -1 3246353 2.0170312374830246e-002</internalNodes>
      <leafValues>
        -1.4305895566940308e-001 4.2910665273666382e-001</leafValues></_>
    <_>
      <internalNodes>
        0 -1 3151078 -3.0732322484254837e-002</internalNodes>
      <leafValues>
        8.4459108114242554e-001 -7.3721811175346375e-002</leafValues></_>
    <_>
      <internalNodes>
        0 -1 3979469 -6.1118224402889609e-004</internalNodes>
      <leafValues>
        -6.4263916015625000e-001 1.1463776230812073e-001</leafValues></_>
    <_>
      <internalNodes>
        0 -1 440209 -1.6643687558826059e-004</internalNodes>
      <leafValues>
        -4.4916197657585144e-001 1.2280791252851486e-001</leafValues></_>
    <_>
      <internalNodes>
        0 -1 2813187 7.2668669745326042e-003</internalNodes>
      <leafValues>
        -1.5988439321517944e-001 3.7756925821304321e-001</leafValues></_>
    <_>
      <internalNodes>
        0 -1 1218492 -3.6126739360042848e-006</internalNodes>
      <leafValues>
        3.5160940885543823e-001 -1.6724421083927155e-001</leafValues></_></weakClassifiers></stage11>
</opencv_storage>
