<?xml version="1.0"?>
<opencv_storage>
<stage3>
  <maxWeakCount>15</maxWeakCount>
  <stageThreshold>-6.3001328706741333e-001</stageThreshold>
  <weakClassifiers>
    <_>
      <internalNodes>
        0 -1 1042003 -8.4874019026756287e-002</internalNodes>
      <leafValues>
        8.7961697578430176e-001 9.9016852676868439e-002</leafValues></_>
    <_>
      <internalNodes>
        0 -1 2712006 3.2486535608768463e-002</internalNodes>
      <leafValues>
        -1.2606300413608551e-001 6.6488826274871826e-001</leafValues></_>
    <_>
      <internalNodes>
        0 -1 1927297 -2.4029172956943512e-002</internalNodes>
      <leafValues>
        7.1769130229949951e-001 -1.4705543220043182e-001</leafValues></_>
    <_>
      <internalNodes>
        0 -1 168970 -4.6356627717614174e-003</internalNodes>
      <leafValues>
        3.0233231186866760e-001 -3.2443213462829590e-001</leafValues></_>
    <_>
      <internalNodes>
        0 -1 94681 -3.4638512715901015e-006</internalNodes>
      <leafValues>
        3.3707052469253540e-001 -2.6813322305679321e-001</leafValues></_>
    <_>
      <internalNodes>
        0 -1 894181 4.3976865708827972e-004</internalNodes>
      <leafValues>
        1.5370458364486694e-001 -5.6542950868606567e-001</leafValues></_>
    <_>
      <internalNodes>
        0 -1 87563 6.6448189318180084e-003</internalNodes>
      <leafValues>
        -2.2997099161148071e-001 3.7645787000656128e-001</leafValues></_>
    <_>
      <internalNodes>
        0 -1 1535480 3.1893252980808029e-006</internalNodes>
      <leafValues>
        -2.1697917580604553e-001 3.9365759491920471e-001</leafValues></_>
    <_>
      <internalNodes>
        0 -1 1354220 4.9590988783165812e-004</internalNodes>
      <leafValues>
        1.6214208304882050e-001 -5.5408865213394165e-001</leafValues></_>
    <_>
      <internalNodes>
        0 -1 3457808 3.3128169434348820e-006</internalNodes>
      <leafValues>
        -2.1644623577594757e-001 3.7631234526634216e-001</leafValues></_>
    <_>
      <internalNodes>
        0 -1 3457808 -3.3539292871864745e-006</internalNodes>
      <leafValues>
        4.6105116605758667e-001 -2.1058036386966705e-001</leafValues></_>
    <_>
      <internalNodes>
        0 -1 169207 -1.0715443640947342e-001</internalNodes>
      <leafValues>
        1.6624267399311066e-001 -5.0278627872467041e-001</leafValues></_>
    <_>
      <internalNodes>
        0 -1 3135954 -4.2551312595605850e-002</internalNodes>
      <leafValues>
        5.0030642747879028e-001 -1.6429717838764191e-001</leafValues></_>
    <_>
      <internalNodes>
        0 -1 3745556 -2.6107078883796930e-003</internalNodes>
      <leafValues>
        -6.6571587324142456e-001 1.2687703967094421e-001</leafValues></_>
    <_>
      <internalNodes>
        0 -1 948537 -3.7718248222518014e-006</internalNodes>
      <leafValues>
        2.5005814433097839e-001 -2.9945465922355652e-001</leafValues></_></weakClassifiers></stage3>
</opencv_storage>
